#ifndef SINE_MODEL_H
#define SINE_MODEL_H


unsigned int sine_model_len = 3152;
unsigned char sine_model[] = {
 0x1c, 0x00, 0x00, 0x00, 0x54, 0x46, 0x4c, 0x33, 0x14, 0x00, 0x20, 0x00,
  0x1c, 0x00, 0x18, 0x00, 0x14, 0x00, 0x10, 0x00, 0x0c, 0x00, 0x00, 0x00,
  0x08, 0x00, 0x04, 0x00, 0x14, 0x00, 0x00, 0x00, 0x1c, 0x00, 0x00, 0x00,
  0x98, 0x00, 0x00, 0x00, 0xf0, 0x00, 0x00, 0x00, 0x14, 0x07, 0x00, 0x00,
  0x24, 0x07, 0x00, 0x00, 0xfc, 0x0b, 0x00, 0x00, 0x03, 0x00, 0x00, 0x00,
  0x01, 0x00, 0x00, 0x00, 0x10, 0x00, 0x00, 0x00, 0x00, 0x00, 0x0a, 0x00,
  0x10, 0x00, 0x0c, 0x00, 0x08, 0x00, 0x04, 0x00, 0x0a, 0x00, 0x00, 0x00,
  0x0c, 0x00, 0x00, 0x00, 0x1c, 0x00, 0x00, 0x00, 0x3c, 0x00, 0x00, 0x00,
  0x0f, 0x00, 0x00, 0x00, 0x73, 0x65, 0x72, 0x76, 0x69, 0x6e, 0x67, 0x5f,
  0x64, 0x65, 0x66, 0x61, 0x75, 0x6c, 0x74, 0x00, 0x01, 0x00, 0x00, 0x00,
  0x04, 0x00, 0x00, 0x00, 0x90, 0xff, 0xff, 0xff, 0x09, 0x00, 0x00, 0x00,
  0x04, 0x00, 0x00, 0x00, 0x08, 0x00, 0x00, 0x00, 0x6f, 0x75, 0x74, 0x70,
  0x75, 0x74, 0x5f, 0x30, 0x00, 0x00, 0x00, 0x00, 0x01, 0x00, 0x00, 0x00,
  0x04, 0x00, 0x00, 0x00, 0xba, 0xf9, 0xff, 0xff, 0x04, 0x00, 0x00, 0x00,
  0x0c, 0x00, 0x00, 0x00, 0x6b, 0x65, 0x72, 0x61, 0x73, 0x5f, 0x74, 0x65,
  0x6e, 0x73, 0x6f, 0x72, 0x00, 0x00, 0x00, 0x00, 0x02, 0x00, 0x00, 0x00,
  0x34, 0x00, 0x00, 0x00, 0x04, 0x00, 0x00, 0x00, 0xdc, 0xff, 0xff, 0xff,
  0x0c, 0x00, 0x00, 0x00, 0x04, 0x00, 0x00, 0x00, 0x13, 0x00, 0x00, 0x00,
  0x43, 0x4f, 0x4e, 0x56, 0x45, 0x52, 0x53, 0x49, 0x4f, 0x4e, 0x5f, 0x4d,
  0x45, 0x54, 0x41, 0x44, 0x41, 0x54, 0x41, 0x00, 0x08, 0x00, 0x0c, 0x00,
  0x08, 0x00, 0x04, 0x00, 0x08, 0x00, 0x00, 0x00, 0x0b, 0x00, 0x00, 0x00,
  0x04, 0x00, 0x00, 0x00, 0x13, 0x00, 0x00, 0x00, 0x6d, 0x69, 0x6e, 0x5f,
  0x72, 0x75, 0x6e, 0x74, 0x69, 0x6d, 0x65, 0x5f, 0x76, 0x65, 0x72, 0x73,
  0x69, 0x6f, 0x6e, 0x00, 0x0d, 0x00, 0x00, 0x00, 0x20, 0x06, 0x00, 0x00,
  0x18, 0x06, 0x00, 0x00, 0xc8, 0x05, 0x00, 0x00, 0xb0, 0x01, 0x00, 0x00,
  0x9c, 0x01, 0x00, 0x00, 0x4c, 0x01, 0x00, 0x00, 0xfc, 0x00, 0x00, 0x00,
  0xac, 0x00, 0x00, 0x00, 0xa4, 0x00, 0x00, 0x00, 0x9c, 0x00, 0x00, 0x00,
  0x94, 0x00, 0x00, 0x00, 0x74, 0x00, 0x00, 0x00, 0x04, 0x00, 0x00, 0x00,
  0x6a, 0xfa, 0xff, 0xff, 0x04, 0x00, 0x00, 0x00, 0x60, 0x00, 0x00, 0x00,
  0x0c, 0x00, 0x00, 0x00, 0x08, 0x00, 0x0e, 0x00, 0x08, 0x00, 0x04, 0x00,
  0x08, 0x00, 0x00, 0x00, 0x10, 0x00, 0x00, 0x00, 0x28, 0x00, 0x00, 0x00,
  0x00, 0x00, 0x06, 0x00, 0x08, 0x00, 0x04, 0x00, 0x06, 0x00, 0x00, 0x00,
  0x04, 0x00, 0x00, 0x00, 0x01, 0x00, 0x00, 0x00, 0xea, 0x03, 0x00, 0x00,
  0x0c, 0x00, 0x18, 0x00, 0x14, 0x00, 0x10, 0x00, 0x0c, 0x00, 0x04, 0x00,
  0x0c, 0x00, 0x00, 0x00, 0x81, 0x73, 0x35, 0xf5, 0x27, 0x00, 0xc7, 0x45,
  0x02, 0x00, 0x00, 0x00, 0x02, 0x00, 0x00, 0x00, 0x04, 0x00, 0x00, 0x00,
  0x06, 0x00, 0x00, 0x00, 0x32, 0x2e, 0x31, 0x37, 0x2e, 0x30, 0x00, 0x00,
  0xd6, 0xfa, 0xff, 0xff, 0x04, 0x00, 0x00, 0x00, 0x10, 0x00, 0x00, 0x00,
  0x31, 0x2e, 0x35, 0x2e, 0x30, 0x00, 0x00, 0x00, 0x00, 0x00, 0x00, 0x00,
  0x00, 0x00, 0x00, 0x00, 0xe0, 0xf5, 0xff, 0xff, 0xe4, 0xf5, 0xff, 0xff,
  0xe8, 0xf5, 0xff, 0xff, 0xfe, 0xfa, 0xff, 0xff, 0x04, 0x00, 0x00, 0x00,
  0x40, 0x00, 0x00, 0x00, 0x4a, 0x85, 0x2d, 0x3e, 0x92, 0x22, 0xc1, 0x3e,
  0x0b, 0xfc, 0x2f, 0x3e, 0xae, 0x78, 0x9c, 0xbe, 0x04, 0xf3, 0x84, 0x3e,
  0x20, 0x1d, 0x20, 0xbd, 0x2b, 0xab, 0x85, 0xbe, 0x80, 0xa1, 0xf6, 0xbb,
  0x75, 0x8f, 0xfd, 0x3e, 0xf8, 0x58, 0xdb, 0x3e, 0xb4, 0x19, 0xf7, 0x3e,
  0x7a, 0x8c, 0x4c, 0x3e, 0x42, 0xeb, 0x0f, 0xbe, 0xbc, 0x8b, 0xdf, 0x3d,
  0x27, 0x6f, 0xed, 0x3e, 0x70, 0x21, 0x60, 0x3e, 0x4a, 0xfb, 0xff, 0xff,
  0x04, 0x00, 0x00, 0x00, 0x40, 0x00, 0x00, 0x00, 0xb2, 0x28, 0xfb, 0xbe,
  0x3d, 0xa2, 0xe2, 0xbe, 0xda, 0x29, 0x25, 0xbe, 0x00, 0x00, 0x00, 0x00,
  0x7d, 0xa6, 0x26, 0xbf, 0x00, 0x00, 0x00, 0x00, 0x00, 0x00, 0x00, 0x00,
  0x00, 0x00, 0x00, 0x00, 0xd7, 0x5d, 0xb0, 0xbb, 0xfd, 0x73, 0x9c, 0xbe,
  0xcc, 0xbb, 0x4e, 0xbf, 0xcf, 0x09, 0xa3, 0xbe, 0x00, 0x00, 0x00, 0x00,
  0xd6, 0xfb, 0x5d, 0xbe, 0x46, 0x1c, 0xc6, 0x3e, 0xc8, 0xbc, 0xb8, 0xbc,
  0x96, 0xfb, 0xff, 0xff, 0x04, 0x00, 0x00, 0x00, 0x40, 0x00, 0x00, 0x00,
  0xd9, 0x53, 0xfc, 0xbd, 0x43, 0x3a, 0x4f, 0xbb, 0xc4, 0xf6, 0x23, 0x3e,
  0x00, 0x00, 0x00, 0x00, 0xc0, 0xd9, 0x12, 0xbf, 0x37, 0x8d, 0xcd, 0x3c,
  0xcb, 0xd2, 0xa7, 0xbc, 0x75, 0x8f, 0xce, 0xbc, 0x00, 0x00, 0x00, 0x00,
  0x7a, 0x1c, 0x25, 0x3e, 0x00, 0x00, 0x00, 0x00, 0xe1, 0x84, 0x0d, 0xbe,
  0x00, 0x00, 0x00, 0x00, 0xa7, 0x76, 0x97, 0xbe, 0x9d, 0xd9, 0x07, 0x3f,
  0x6a, 0x73, 0x57, 0xbd, 0xe2, 0xfb, 0xff, 0xff, 0x04, 0x00, 0x00, 0x00,
  0x04, 0x00, 0x00, 0x00, 0x93, 0xea, 0xa4, 0xbe, 0xf2, 0xfb, 0xff, 0xff,
  0x04, 0x00, 0x00, 0x00, 0x00, 0x04, 0x00, 0x00, 0xcb, 0x35, 0x16, 0xbc,
  0xcf, 0x5c, 0xb4, 0x3e, 0xfe, 0x5c, 0xcb, 0xbd, 0x96, 0x05, 0x7c, 0x3e,
  0xfc, 0xfe, 0x04, 0xbf, 0x68, 0x48, 0x4a, 0xbd, 0x90, 0x91, 0xd4, 0xbc,
  0xe6, 0xed, 0x52, 0x3e, 0xb5, 0xe7, 0xc0, 0x3e, 0x94, 0xf8, 0x7b, 0x3e,
  0x89, 0xb8, 0x8a, 0x3e, 0x75, 0xab, 0x8c, 0xbe, 0x6c, 0x38, 0xc6, 0x3d,
  0x5c, 0xa4, 0x0e, 0x3e, 0x49, 0xc5, 0xef, 0x3d, 0xf7, 0x3b, 0xa2, 0xbd,
  0xa7, 0x3f, 0x9b, 0x3e, 0x62, 0x54, 0xa2, 0x3e, 0x90, 0x70, 0x83, 0xbe,
  0xee, 0xa5, 0x15, 0xbe, 0x7f, 0x65, 0xcf, 0x3b, 0x42, 0x0f, 0x13, 0xbe,
  0xc9, 0xe3, 0x8b, 0x3e, 0x68, 0x4a, 0x87, 0xbd, 0x59, 0x51, 0xac, 0xbd,
  0x13, 0x0b, 0x55, 0xbe, 0xcf, 0xd9, 0x2a, 0x3e, 0xee, 0x06, 0xd3, 0xbc,
  0xdc, 0x5a, 0x84, 0x3d, 0x88, 0x95, 0x43, 0xbe, 0x03, 0xde, 0x13, 0xbe,
  0xbd, 0xd5, 0x8c, 0xbd, 0x85, 0x76, 0x04, 0xbf, 0xe2, 0x68, 0xd9, 0xbd,
  0x22, 0xc5, 0x37, 0xbf, 0x38, 0x9c, 0x11, 0x3d, 0x26, 0x8e, 0x26, 0xbf,
  0xe6, 0xae, 0x03, 0x3e, 0xd9, 0x73, 0x94, 0x3e, 0x70, 0xcd, 0x89, 0xbd,
  0xac, 0x71, 0x07, 0xbd, 0x41, 0x08, 0x7d, 0xbe, 0xc1, 0xf7, 0x7c, 0xbe,
  0xe7, 0x33, 0x76, 0xbe, 0xee, 0x42, 0x67, 0x3e, 0x79, 0xce, 0xd3, 0xbe,
  0x26, 0x36, 0xfd, 0x3e, 0xa2, 0x45, 0xc8, 0x3e, 0x10, 0xe8, 0x44, 0xbe,
  0xba, 0x54, 0x1b, 0x3e, 0x9a, 0x0d, 0x41, 0x3e, 0x24, 0xa6, 0xd7, 0xbd,
  0x1b, 0x8c, 0xc7, 0xbe, 0xb0, 0x0c, 0xa7, 0xbe, 0x3f, 0x93, 0xd6, 0x3e,
  0x2a, 0x3e, 0x0f, 0xbe, 0x60, 0x30, 0x26, 0xbd, 0xc0, 0x7c, 0x72, 0x3c,
  0xd0, 0x1d, 0x52, 0x3d, 0x54, 0xb2, 0xb4, 0xbe, 0xf2, 0xe7, 0x25, 0x3e,
  0xa4, 0x12, 0xd4, 0x3d, 0x20, 0x4b, 0x78, 0xbe, 0x06, 0xe0, 0x24, 0xbe,
  0x01, 0xd5, 0x17, 0x3f, 0x04, 0xd9, 0x9d, 0x3e, 0x5c, 0x5d, 0xaf, 0xbd,
  0xfe, 0x38, 0xd9, 0xbe, 0x33, 0x5f, 0x46, 0x3e, 0x4a, 0x9d, 0xa5, 0xbe,
  0xc0, 0xc5, 0xfb, 0xbc, 0xdc, 0x53, 0xa6, 0x3d, 0x65, 0xa2, 0x7a, 0xbd,
  0x00, 0x4a, 0xa5, 0xbd, 0xf9, 0xfa, 0x05, 0x3f, 0x4b, 0xae, 0x4b, 0x3e,
  0xb4, 0x92, 0xbe, 0xbe, 0x81, 0xfb, 0xd9, 0x3e, 0x60, 0x23, 0xff, 0xbe,
  0x4a, 0xe3, 0xba, 0x3e, 0x41, 0x01, 0xab, 0xbe, 0xd7, 0x40, 0xb6, 0x3d,
  0x01, 0xbb, 0xa8, 0x3e, 0xa0, 0x18, 0xa0, 0xbc, 0x75, 0xc7, 0x13, 0xbf,
  0x18, 0x85, 0x6f, 0x3d, 0x2d, 0x3c, 0xcf, 0xbe, 0xd5, 0x5c, 0xc9, 0x3e,
  0xe7, 0xbc, 0x2e, 0x3c, 0x5e, 0xfa, 0x49, 0x3c, 0xfd, 0x33, 0x98, 0x3d,
  0xcb, 0xf8, 0x93, 0xbe, 0xc6, 0x4a, 0x3d, 0x3e, 0xef, 0xae, 0x14, 0xbe,
  0x51, 0x14, 0xb4, 0x3e, 0xb5, 0xd3, 0x07, 0xbe, 0xa1, 0x5b, 0x85, 0xbe,
  0x1b, 0x6c, 0xa5, 0x3e, 0x10, 0x06, 0xbf, 0xbe, 0x3e, 0xfe, 0x7a, 0x3e,
  0x9c, 0xe9, 0x12, 0xbf, 0xfb, 0x57, 0xa3, 0xbe, 0xe0, 0xa7, 0xa6, 0x3c,
  0x6c, 0xb0, 0xaf, 0x3d, 0x43, 0xac, 0x23, 0x3e, 0x87, 0xb7, 0x15, 0x3e,
  0xb9, 0xc0, 0xaf, 0xbd, 0x5e, 0xf7, 0x9f, 0x3e, 0x71, 0x0f, 0xa6, 0x3e,
  0x8d, 0x83, 0xf9, 0x3c, 0xe6, 0xed, 0x9d, 0xbd, 0x82, 0xc8, 0x7f, 0x3e,
  0x36, 0x2d, 0x89, 0xbe, 0x44, 0xfd, 0xa3, 0xbe, 0x0a, 0xa7, 0x42, 0x3e,
  0x6a, 0x71, 0x48, 0x3e, 0xec, 0x4d, 0xca, 0xbe, 0x0b, 0x8a, 0x4e, 0xbe,
  0x04, 0x99, 0xbe, 0x3d, 0xf9, 0xa9, 0xc5, 0xbe, 0x53, 0xbd, 0x90, 0x3d,
  0xbb, 0x31, 0xc6, 0x3d, 0x23, 0xe6, 0x59, 0xbd, 0x5f, 0xe0, 0xd0, 0x3e,
  0x5d, 0xb3, 0xae, 0x3e, 0xbc, 0x90, 0x61, 0xbe, 0x7b, 0x48, 0x46, 0xbe,
  0xa3, 0x64, 0xa8, 0x3e, 0xa4, 0xe2, 0xc8, 0xbd, 0xc3, 0xb6, 0xc3, 0xbe,
  0xcb, 0x00, 0xcb, 0x3e, 0x70, 0x6f, 0xc2, 0x3c, 0x50, 0xf3, 0xf6, 0xbd,
  0x01, 0x13, 0x5d, 0xbe, 0xba, 0x40, 0x51, 0x3e, 0xc4, 0xee, 0x1e, 0xbe,
  0x1d, 0xc1, 0x3e, 0xbe, 0xe0, 0x86, 0x21, 0xbd, 0x3d, 0x17, 0xa4, 0x3e,
  0x50, 0x7f, 0xdc, 0xbd, 0xb7, 0x87, 0xbe, 0xbe, 0x78, 0xd0, 0xb7, 0xbd,
  0x16, 0x0f, 0xbd, 0xbe, 0xaa, 0x1b, 0x2f, 0x3e, 0xc9, 0x96, 0x80, 0xbf,
  0x01, 0x48, 0x05, 0xbf, 0x70, 0x8a, 0x0b, 0xbe, 0x1b, 0xaa, 0xa8, 0x3e,
  0xe4, 0x62, 0x3f, 0xbf, 0x3b, 0x51, 0xae, 0x3e, 0x58, 0xe1, 0x65, 0x3d,
  0x03, 0xc8, 0xd7, 0x3e, 0x24, 0xf3, 0xae, 0x3e, 0x19, 0xab, 0xe2, 0xbd,
  0x33, 0x50, 0x9a, 0xbe, 0xda, 0x33, 0xc4, 0xbe, 0xfa, 0x95, 0xcb, 0xbe,
  0xc9, 0x2f, 0xe3, 0xbe, 0x84, 0xcf, 0xd2, 0x3e, 0x8e, 0x82, 0xd7, 0x3e,
  0x85, 0x5a, 0xa2, 0x3e, 0xcb, 0xc9, 0x73, 0xbe, 0x20, 0xb7, 0x38, 0xbc,
  0xca, 0x9b, 0x4f, 0xbe, 0xf0, 0x3f, 0x3d, 0xbd, 0x60, 0x1e, 0x37, 0xbc,
  0x3c, 0xd9, 0xc2, 0x3d, 0x0e, 0x38, 0x7a, 0x3e, 0x7a, 0xd3, 0x1f, 0xbe,
  0xbd, 0x2a, 0xb1, 0xbe, 0x5a, 0x21, 0xbf, 0xbe, 0xea, 0x19, 0x21, 0x3e,
  0x9e, 0x74, 0x05, 0xbe, 0x78, 0x8d, 0x54, 0x3d, 0xb8, 0x63, 0xb1, 0xbe,
  0xf8, 0x07, 0xbc, 0xbd, 0xa0, 0x13, 0x0b, 0x3f, 0xe5, 0x65, 0x9a, 0xbd,
  0x78, 0x8c, 0xd9, 0xbe, 0x68, 0xce, 0x7d, 0xbd, 0x0e, 0xd3, 0x0d, 0xbd,
  0x50, 0x7b, 0x1e, 0xbe, 0x60, 0x9c, 0xd2, 0x3c, 0xda, 0xf6, 0x56, 0xbe,
  0xc1, 0x1d, 0xd0, 0x3e, 0xef, 0xbc, 0x34, 0xbe, 0x19, 0xe2, 0x0d, 0x3d,
  0x81, 0xd1, 0x98, 0x3e, 0x14, 0xe7, 0xed, 0xbd, 0xf0, 0xa4, 0x25, 0x3e,
  0xb6, 0xc2, 0x70, 0x3b, 0xed, 0x71, 0x27, 0x3e, 0x70, 0x09, 0x28, 0x3d,
  0x40, 0xe6, 0x6b, 0xbe, 0x60, 0x85, 0x0b, 0xbe, 0xec, 0xdf, 0xda, 0xbe,
  0xd4, 0x23, 0xc1, 0x3d, 0x10, 0x6e, 0x20, 0x3d, 0xcb, 0x2b, 0xbb, 0x3e,
  0xa0, 0xd7, 0xbf, 0xbe, 0x40, 0xca, 0x25, 0xbe, 0xcf, 0x75, 0xca, 0x3e,
  0xa6, 0xb5, 0x06, 0x3e, 0x36, 0x75, 0x4a, 0x3e, 0xdc, 0xfb, 0x8d, 0xbe,
  0xc0, 0x66, 0xf9, 0xbb, 0xe3, 0x12, 0x98, 0xbe, 0x8e, 0xe2, 0xb7, 0xbe,
  0xe1, 0x15, 0x25, 0x3e, 0x84, 0x1f, 0x04, 0x3e, 0xc2, 0xc5, 0x26, 0xbe,
  0x67, 0x6f, 0xd6, 0xbe, 0x55, 0xee, 0x33, 0x3e, 0xc7, 0xe4, 0xc5, 0x3e,
  0x38, 0x33, 0x87, 0xbe, 0x73, 0x63, 0x9f, 0x3e, 0xf4, 0xf2, 0xf6, 0x3d,
  0x27, 0xcb, 0x5a, 0x3e, 0x42, 0xb5, 0x34, 0x3d, 0x74, 0x17, 0xb8, 0xbe,
  0x2d, 0x1b, 0x85, 0xbe, 0x00, 0xc7, 0x24, 0xbe, 0xc8, 0x46, 0xf2, 0xbd,
  0xe4, 0x5d, 0x08, 0x3d, 0xd8, 0xf6, 0xf4, 0xbd, 0xf2, 0x08, 0xf5, 0xbe,
  0x10, 0xae, 0x41, 0x3e, 0xec, 0x49, 0xde, 0x3d, 0xa7, 0xcf, 0x99, 0xbe,
  0xe7, 0x8c, 0x91, 0x3e, 0xbe, 0x9e, 0x42, 0x3e, 0x48, 0xbc, 0xda, 0xbd,
  0xd1, 0xbe, 0x74, 0xbd, 0xd5, 0x8e, 0x86, 0xbe, 0xb0, 0xcb, 0x28, 0xbf,
  0x0e, 0x3c, 0xa9, 0xbe, 0x7e, 0x45, 0x33, 0x3e, 0x1a, 0xc9, 0xc5, 0x3d,
  0x4c, 0xd2, 0x45, 0xbd, 0x4e, 0xb9, 0x10, 0xbf, 0xcd, 0x99, 0xf0, 0x3d,
  0xa4, 0x52, 0x23, 0xbe, 0x14, 0x1d, 0xb7, 0x3e, 0x9f, 0x28, 0x71, 0xbe,
  0x32, 0xac, 0xd8, 0xbe, 0x50, 0x95, 0x97, 0xbc, 0xa7, 0x9c, 0xc4, 0x3e,
  0xbe, 0x8c, 0x2f, 0x3e, 0x28, 0x60, 0x44, 0x3e, 0x66, 0x36, 0xe1, 0x3e,
  0x27, 0x8a, 0x83, 0xbe, 0xa8, 0xac, 0xf7, 0xb9, 0xd2, 0xba, 0x36, 0xbe,
  0xc9, 0x5a, 0x9a, 0x3e, 0x8c, 0xfe, 0x93, 0xbd, 0xae, 0x84, 0xd9, 0x3e,
  0x00, 0x00, 0x06, 0x00, 0x08, 0x00, 0x04, 0x00, 0x06, 0x00, 0x00, 0x00,
  0x04, 0x00, 0x00, 0x00, 0x40, 0x00, 0x00, 0x00, 0xe8, 0x05, 0x53, 0xbe,
  0x76, 0xb0, 0x15, 0xbf, 0xc4, 0x73, 0x86, 0x3f, 0xa4, 0x0b, 0xdc, 0x3e,
  0x54, 0xfa, 0xd9, 0x3f, 0xfb, 0x48, 0xa9, 0xbe, 0xc7, 0xe8, 0xe8, 0xbe,
  0x68, 0xb2, 0xe9, 0x3d, 0x9e, 0xa9, 0x09, 0x3f, 0xfc, 0xa4, 0xa0, 0x3f,
  0x9e, 0x54, 0xbe, 0x3e, 0x1a, 0xf5, 0xbf, 0x3e, 0x20, 0x43, 0x88, 0x3c,
  0xd3, 0x69, 0x48, 0x3f, 0xca, 0x83, 0x30, 0xbf, 0x3c, 0x88, 0x5d, 0xbe,
  0x40, 0xfb, 0xff, 0xff, 0x44, 0xfb, 0xff, 0xff, 0x0f, 0x00, 0x00, 0x00,
  0x4d, 0x4c, 0x49, 0x52, 0x20, 0x43, 0x6f, 0x6e, 0x76, 0x65, 0x72, 0x74,
  0x65, 0x64, 0x2e, 0x00, 0x01, 0x00, 0x00, 0x00, 0x14, 0x00, 0x00, 0x00,
  0x00, 0x00, 0x0e, 0x00, 0x18, 0x00, 0x14, 0x00, 0x10, 0x00, 0x0c, 0x00,
  0x08, 0x00, 0x04, 0x00, 0x0e, 0x00, 0x00, 0x00, 0x14, 0x00, 0x00, 0x00,
  0x1c, 0x00, 0x00, 0x00, 0xd8, 0x00, 0x00, 0x00, 0xdc, 0x00, 0x00, 0x00,
  0xe0, 0x00, 0x00, 0x00, 0x04, 0x00, 0x00, 0x00, 0x6d, 0x61, 0x69, 0x6e,
  0x00, 0x00, 0x00, 0x00, 0x03, 0x00, 0x00, 0x00, 0x80, 0x00, 0x00, 0x00,
  0x38, 0x00, 0x00, 0x00, 0x04, 0x00, 0x00, 0x00, 0x9a, 0xff, 0xff, 0xff,
  0x10, 0x00, 0x00, 0x00, 0x00, 0x00, 0x00, 0x08, 0x0c, 0x00, 0x00, 0x00,
  0x10, 0x00, 0x00, 0x00, 0xbc, 0xfb, 0xff, 0xff, 0x01, 0x00, 0x00, 0x00,
  0x09, 0x00, 0x00, 0x00, 0x03, 0x00, 0x00, 0x00, 0x08, 0x00, 0x00, 0x00,
  0x01, 0x00, 0x00, 0x00, 0x03, 0x00, 0x00, 0x00, 0xca, 0xff, 0xff, 0xff,
  0x10, 0x00, 0x00, 0x00, 0x00, 0x00, 0x00, 0x08, 0x10, 0x00, 0x00, 0x00,
  0x14, 0x00, 0x00, 0x00, 0xba, 0xff, 0xff, 0xff, 0x00, 0x00, 0x00, 0x01,
  0x01, 0x00, 0x00, 0x00, 0x08, 0x00, 0x00, 0x00, 0x03, 0x00, 0x00, 0x00,
  0x07, 0x00, 0x00, 0x00, 0x02, 0x00, 0x00, 0x00, 0x04, 0x00, 0x00, 0x00,
  0x00, 0x00, 0x0e, 0x00, 0x16, 0x00, 0x00, 0x00, 0x10, 0x00, 0x0c, 0x00,
  0x0b, 0x00, 0x04, 0x00, 0x0e, 0x00, 0x00, 0x00, 0x18, 0x00, 0x00, 0x00,
  0x00, 0x00, 0x00, 0x08, 0x18, 0x00, 0x00, 0x00, 0x1c, 0x00, 0x00, 0x00,
  0x00, 0x00, 0x06, 0x00, 0x08, 0x00, 0x07, 0x00, 0x06, 0x00, 0x00, 0x00,
  0x00, 0x00, 0x00, 0x01, 0x01, 0x00, 0x00, 0x00, 0x07, 0x00, 0x00, 0x00,
  0x03, 0x00, 0x00, 0x00, 0x00, 0x00, 0x00, 0x00, 0x06, 0x00, 0x00, 0x00,
  0x05, 0x00, 0x00, 0x00, 0x01, 0x00, 0x00, 0x00, 0x09, 0x00, 0x00, 0x00,
  0x01, 0x00, 0x00, 0x00, 0x00, 0x00, 0x00, 0x00, 0x0a, 0x00, 0x00, 0x00,
  0x6c, 0x03, 0x00, 0x00, 0x14, 0x03, 0x00, 0x00, 0xbc, 0x02, 0x00, 0x00,
  0x80, 0x02, 0x00, 0x00, 0x28, 0x02, 0x00, 0x00, 0xd4, 0x01, 0x00, 0x00,
  0x88, 0x01, 0x00, 0x00, 0xf8, 0x00, 0x00, 0x00, 0x60, 0x00, 0x00, 0x00,
  0x04, 0x00, 0x00, 0x00, 0xd2, 0xfc, 0xff, 0xff, 0x00, 0x00, 0x00, 0x01,
  0x14, 0x00, 0x00, 0x00, 0x1c, 0x00, 0x00, 0x00, 0x1c, 0x00, 0x00, 0x00,
  0x0a, 0x00, 0x00, 0x00, 0x34, 0x00, 0x00, 0x00, 0x02, 0x00, 0x00, 0x00,
  0xff, 0xff, 0xff, 0xff, 0x01, 0x00, 0x00, 0x00, 0xbc, 0xfc, 0xff, 0xff,
  0x1b, 0x00, 0x00, 0x00, 0x53, 0x74, 0x61, 0x74, 0x65, 0x66, 0x75, 0x6c,
  0x50, 0x61, 0x72, 0x74, 0x69, 0x74, 0x69, 0x6f, 0x6e, 0x65, 0x64, 0x43,
  0x61, 0x6c, 0x6c, 0x5f, 0x31, 0x3a, 0x30, 0x00, 0x02, 0x00, 0x00, 0x00,
  0x01, 0x00, 0x00, 0x00, 0x01, 0x00, 0x00, 0x00, 0x2a, 0xfd, 0xff, 0xff,
  0x00, 0x00, 0x00, 0x01, 0x14, 0x00, 0x00, 0x00, 0x1c, 0x00, 0x00, 0x00,
  0x1c, 0x00, 0x00, 0x00, 0x09, 0x00, 0x00, 0x00, 0x70, 0x00, 0x00, 0x00,
  0x02, 0x00, 0x00, 0x00, 0xff, 0xff, 0xff, 0xff, 0x10, 0x00, 0x00, 0x00,
  0x14, 0xfd, 0xff, 0xff, 0x54, 0x00, 0x00, 0x00, 0x73, 0x65, 0x71, 0x75,
  0x65, 0x6e, 0x74, 0x69, 0x61, 0x6c, 0x5f, 0x31, 0x2f, 0x64, 0x65, 0x6e,
  0x73, 0x65, 0x5f, 0x31, 0x5f, 0x32, 0x2f, 0x4d, 0x61, 0x74, 0x4d, 0x75,
  0x6c, 0x3b, 0x73, 0x65, 0x71, 0x75, 0x65, 0x6e, 0x74, 0x69, 0x61, 0x6c,
  0x5f, 0x31, 0x2f, 0x64, 0x65, 0x6e, 0x73, 0x65, 0x5f, 0x31, 0x5f, 0x32,
  0x2f, 0x52, 0x65, 0x6c, 0x75, 0x3b, 0x73, 0x65, 0x71, 0x75, 0x65, 0x6e,
  0x74, 0x69, 0x61, 0x6c, 0x5f, 0x31, 0x2f, 0x64, 0x65, 0x6e, 0x73, 0x65,
  0x5f, 0x31, 0x5f, 0x32, 0x2f, 0x41, 0x64, 0x64, 0x00, 0x00, 0x00, 0x00,
  0x02, 0x00, 0x00, 0x00, 0x01, 0x00, 0x00, 0x00, 0x10, 0x00, 0x00, 0x00,
  0xbe, 0xfd, 0xff, 0xff, 0x00, 0x00, 0x00, 0x01, 0x14, 0x00, 0x00, 0x00,
  0x1c, 0x00, 0x00, 0x00, 0x1c, 0x00, 0x00, 0x00, 0x08, 0x00, 0x00, 0x00,
  0x68, 0x00, 0x00, 0x00, 0x02, 0x00, 0x00, 0x00, 0xff, 0xff, 0xff, 0xff,
  0x10, 0x00, 0x00, 0x00, 0xa8, 0xfd, 0xff, 0xff, 0x4e, 0x00, 0x00, 0x00,
  0x73, 0x65, 0x71, 0x75, 0x65, 0x6e, 0x74, 0x69, 0x61, 0x6c, 0x5f, 0x31,
  0x2f, 0x64, 0x65, 0x6e, 0x73, 0x65, 0x5f, 0x31, 0x2f, 0x4d, 0x61, 0x74,
  0x4d, 0x75, 0x6c, 0x3b, 0x73, 0x65, 0x71, 0x75, 0x65, 0x6e, 0x74, 0x69,
  0x61, 0x6c, 0x5f, 0x31, 0x2f, 0x64, 0x65, 0x6e, 0x73, 0x65, 0x5f, 0x31,
  0x2f, 0x52, 0x65, 0x6c, 0x75, 0x3b, 0x73, 0x65, 0x71, 0x75, 0x65, 0x6e,
  0x74, 0x69, 0x61, 0x6c, 0x5f, 0x31, 0x2f, 0x64, 0x65, 0x6e, 0x73, 0x65,
  0x5f, 0x31, 0x2f, 0x41, 0x64, 0x64, 0x00, 0x00, 0x02, 0x00, 0x00, 0x00,
  0x01, 0x00, 0x00, 0x00, 0x10, 0x00, 0x00, 0x00, 0x9e, 0xfe, 0xff, 0xff,
  0x00, 0x00, 0x00, 0x01, 0x10, 0x00, 0x00, 0x00, 0x10, 0x00, 0x00, 0x00,
  0x07, 0x00, 0x00, 0x00, 0x28, 0x00, 0x00, 0x00, 0x24, 0xfe, 0xff, 0xff,
  0x1b, 0x00, 0x00, 0x00, 0x73, 0x65, 0x71, 0x75, 0x65, 0x6e, 0x74, 0x69,
  0x61, 0x6c, 0x5f, 0x31, 0x2f, 0x64, 0x65, 0x6e, 0x73, 0x65, 0x5f, 0x31,
  0x2f, 0x4d, 0x61, 0x74, 0x4d, 0x75, 0x6c, 0x00, 0x02, 0x00, 0x00, 0x00,
  0x10, 0x00, 0x00, 0x00, 0x01, 0x00, 0x00, 0x00, 0xe6, 0xfe, 0xff, 0xff,
  0x00, 0x00, 0x00, 0x01, 0x10, 0x00, 0x00, 0x00, 0x10, 0x00, 0x00, 0x00,
  0x06, 0x00, 0x00, 0x00, 0x34, 0x00, 0x00, 0x00, 0x6c, 0xfe, 0xff, 0xff,
  0x27, 0x00, 0x00, 0x00, 0x73, 0x65, 0x71, 0x75, 0x65, 0x6e, 0x74, 0x69,
  0x61, 0x6c, 0x5f, 0x31, 0x2f, 0x64, 0x65, 0x6e, 0x73, 0x65, 0x5f, 0x31,
  0x2f, 0x41, 0x64, 0x64, 0x2f, 0x52, 0x65, 0x61, 0x64, 0x56, 0x61, 0x72,
  0x69, 0x61, 0x62, 0x6c, 0x65, 0x4f, 0x70, 0x00, 0x01, 0x00, 0x00, 0x00,
  0x10, 0x00, 0x00, 0x00, 0x36, 0xff, 0xff, 0xff, 0x00, 0x00, 0x00, 0x01,
  0x10, 0x00, 0x00, 0x00, 0x10, 0x00, 0x00, 0x00, 0x05, 0x00, 0x00, 0x00,
  0x38, 0x00, 0x00, 0x00, 0xbc, 0xfe, 0xff, 0xff, 0x29, 0x00, 0x00, 0x00,
  0x73, 0x65, 0x71, 0x75, 0x65, 0x6e, 0x74, 0x69, 0x61, 0x6c, 0x5f, 0x31,
  0x2f, 0x64, 0x65, 0x6e, 0x73, 0x65, 0x5f, 0x31, 0x5f, 0x32, 0x2f, 0x41,
  0x64, 0x64, 0x2f, 0x52, 0x65, 0x61, 0x64, 0x56, 0x61, 0x72, 0x69, 0x61,
  0x62, 0x6c, 0x65, 0x4f, 0x70, 0x00, 0x00, 0x00, 0x01, 0x00, 0x00, 0x00,
  0x10, 0x00, 0x00, 0x00, 0x8a, 0xff, 0xff, 0xff, 0x00, 0x00, 0x00, 0x01,
  0x10, 0x00, 0x00, 0x00, 0x10, 0x00, 0x00, 0x00, 0x04, 0x00, 0x00, 0x00,
  0x1c, 0x00, 0x00, 0x00, 0x10, 0xff, 0xff, 0xff, 0x0f, 0x00, 0x00, 0x00,
  0x61, 0x72, 0x69, 0x74, 0x68, 0x2e, 0x63, 0x6f, 0x6e, 0x73, 0x74, 0x61,
  0x6e, 0x74, 0x32, 0x00, 0x01, 0x00, 0x00, 0x00, 0x01, 0x00, 0x00, 0x00,
  0xc2, 0xff, 0xff, 0xff, 0x00, 0x00, 0x00, 0x01, 0x10, 0x00, 0x00, 0x00,
  0x10, 0x00, 0x00, 0x00, 0x03, 0x00, 0x00, 0x00, 0x1c, 0x00, 0x00, 0x00,
  0x48, 0xff, 0xff, 0xff, 0x0f, 0x00, 0x00, 0x00, 0x61, 0x72, 0x69, 0x74,
  0x68, 0x2e, 0x63, 0x6f, 0x6e, 0x73, 0x74, 0x61, 0x6e, 0x74, 0x31, 0x00,
  0x02, 0x00, 0x00, 0x00, 0x10, 0x00, 0x00, 0x00, 0x10, 0x00, 0x00, 0x00,
  0x00, 0x00, 0x16, 0x00, 0x18, 0x00, 0x14, 0x00, 0x00, 0x00, 0x10, 0x00,
  0x0c, 0x00, 0x08, 0x00, 0x00, 0x00, 0x00, 0x00, 0x00, 0x00, 0x07, 0x00,
  0x16, 0x00, 0x00, 0x00, 0x00, 0x00, 0x00, 0x01, 0x10, 0x00, 0x00, 0x00,
  0x10, 0x00, 0x00, 0x00, 0x02, 0x00, 0x00, 0x00, 0x1c, 0x00, 0x00, 0x00,
  0x9c, 0xff, 0xff, 0xff, 0x0e, 0x00, 0x00, 0x00, 0x61, 0x72, 0x69, 0x74,
  0x68, 0x2e, 0x63, 0x6f, 0x6e, 0x73, 0x74, 0x61, 0x6e, 0x74, 0x00, 0x00,
  0x02, 0x00, 0x00, 0x00, 0x01, 0x00, 0x00, 0x00, 0x10, 0x00, 0x00, 0x00,
  0x00, 0x00, 0x16, 0x00, 0x1c, 0x00, 0x18, 0x00, 0x00, 0x00, 0x14, 0x00,
  0x10, 0x00, 0x0c, 0x00, 0x00, 0x00, 0x00, 0x00, 0x08, 0x00, 0x07, 0x00,
  0x16, 0x00, 0x00, 0x00, 0x00, 0x00, 0x00, 0x01, 0x14, 0x00, 0x00, 0x00,
  0x20, 0x00, 0x00, 0x00, 0x20, 0x00, 0x00, 0x00, 0x01, 0x00, 0x00, 0x00,
  0x3c, 0x00, 0x00, 0x00, 0x02, 0x00, 0x00, 0x00, 0xff, 0xff, 0xff, 0xff,
  0x01, 0x00, 0x00, 0x00, 0x04, 0x00, 0x04, 0x00, 0x04, 0x00, 0x00, 0x00,
  0x1e, 0x00, 0x00, 0x00, 0x73, 0x65, 0x72, 0x76, 0x69, 0x6e, 0x67, 0x5f,
  0x64, 0x65, 0x66, 0x61, 0x75, 0x6c, 0x74, 0x5f, 0x6b, 0x65, 0x72, 0x61,
  0x73, 0x5f, 0x74, 0x65, 0x6e, 0x73, 0x6f, 0x72, 0x3a, 0x30, 0x00, 0x00,
  0x02, 0x00, 0x00, 0x00, 0x01, 0x00, 0x00, 0x00, 0x01, 0x00, 0x00, 0x00,
  0x01, 0x00, 0x00, 0x00, 0x10, 0x00, 0x00, 0x00, 0x0c, 0x00, 0x0c, 0x00,
  0x0b, 0x00, 0x00, 0x00, 0x00, 0x00, 0x04, 0x00, 0x0c, 0x00, 0x00, 0x00,
  0x09, 0x00, 0x00, 0x00, 0x00, 0x00, 0x00, 0x09
};

#endif //SINE_MODEL_H